// Auto-generated model data translation unit.
// Model: SmallMobileNetV2 (int8, 96x96x3) multi-label (person,dog,cat,none)
// Source: TensorFlow/export/model_data.h (length 140024 bytes)
// NOTE: Keep this array in a single .cc file to avoid large header includes.

#include "model_data.h"
#include <cstdint>

// Length in bytes of the model flatbuffer.
const unsigned int model_data_len = 140024;

// Raw model bytes (TensorFlow Lite flatbuffer). Intentionally not formatted.
// NOLINTNEXTLINE(readability/identifier_length)
const unsigned char model_data[] = {
 0x1c, 0x00, 0x00, 0x00, 0x54, 0x46, 0x4c, 0x33, 0x14, 0x00, 0x20, 0x00, 0x1c, 0x00, 0x18, 0x00, 
 0x14, 0x00, 0x10, 0x00, 0x0c, 0x00, 0x00, 0x00, 0x08, 0x00, 0x04, 0x00, 0x14, 0x00, 0x00, 0x00, 
 0x1c, 0x00, 0x00, 0x00, 0x8c, 0x00, 0x00, 0x00, 0x0c, 0x01, 0x00, 0x00, 0x54, 0x3f, 0x01, 0x00, 
 0x64, 0x3f, 0x01, 0x00, 0x1c, 0x22, 0x02, 0x00, 0x03, 0x00, 0x00, 0x00, 0x01, 0x00, 0x00, 0x00, 
 0x04, 0x00, 0x00, 0x00, 0xea, 0xbf, 0xfe, 0xff, 0x0c, 0x00, 0x00, 0x00, 0x1c, 0x00, 0x00, 0x00, 
 0x3c, 0x00, 0x00, 0x00, 0x0f, 0x00, 0x00, 0x00, 0x73, 0x65, 0x72, 0x76, 0x69, 0x6e, 0x67, 0x5f, 
 0x64, 0x65, 0x66, 0x61, 0x75, 0x6c, 0x74, 0x00, 0x01, 0x00, 0x00, 0x00, 0x04, 0x00, 0x00, 0x00, 
 0x68, 0xff, 0xff, 0xff, 0x56, 0x00, 0x00, 0x00, 0x04, 0x00, 0x00, 0x00, 0x08, 0x00, 0x00, 0x00, 
 0x6f, 0x75, 0x74, 0x70, 0x75, 0x74, 0x5f, 0x30, 0x00, 0x00, 0x00, 0x00, 0x01, 0x00, 0x00, 0x00, 
 0x04, 0x00, 0x00, 0x00, 0x36, 0xc1, 0xfe, 0xff, 0x04, 0x00, 0x00, 0x00, 0x0d, 0x00, 0x00, 0x00, 
 0x69, 0x6e, 0x70, 0x75, 0x74, 0x5f, 0x6c, 0x61, 0x79, 0x65, 0x72, 0x5f, 0x31, 0x00, 0x00, 0x00, 
 0x03, 0x00, 0x00, 0x00, 0x5c, 0x00, 0x00, 0x00, 0x2c, 0x00, 0x00, 0x00, 0x04, 0x00, 0x00, 0x00, 
 0xb8, 0xff, 0xff, 0xff, 0x5a, 0x00, 0x00, 0x00, 0x04, 0x00, 0x00, 0x00, 0x13, 0x00, 0x00, 0x00, 
 0x43, 0x4f, 0x4e, 0x56, 0x45, 0x52, 0x53, 0x49, 0x4f, 0x4e, 0x5f, 0x4d, 0x45, 0x54, 0x41, 0x44, 
 0x41, 0x54, 0x41, 0x00, 0xdc, 0xff, 0xff, 0xff, 0x59, 0x00, 0x00, 0x00, 0x04, 0x00, 0x00, 0x00, 
 0x13, 0x00, 0x00, 0x00, 0x6d, 0x69, 0x6e, 0x5f, 0x72, 0x75, 0x6e, 0x74, 0x69, 0x6d, 0x65, 0x5f, 
 0x76, 0x65, 0x72, 0x73, 0x69, 0x6f, 0x6e, 0x00, 0x08, 0x00, 0x0c, 0x00, 0x08, 0x00, 0x04, 0x00, 
 0x08, 0x00, 0x00, 0x00, 0x58, 0x00, 0x00, 0x00, 0x04, 0x00, 0x00, 0x00, 0x13, 0x00, 0x00, 0x00, 
 0x6d, 0x69, 0x6e, 0x5f, 0x72, 0x75, 0x6e, 0x74, 0x69, 0x6d, 0x65, 0x5f, 0x76, 0x65, 0x72, 0x73, 
 0x69, 0x6f, 0x6e, 0x00, 0x5b, 0x00, 0x00, 0x00, 0x44, 0x3e, 0x01, 0x00, 0x3c, 0x3e, 0x01, 0x00, 
 0x24, 0x3e, 0x01, 0x00, 0xfc, 0x3d, 0x01, 0x00, 0xec, 0x3c, 0x01, 0x00, 0xdc, 0x3b, 0x01, 0x00, 
 0xcc, 0x1b, 0x01, 0x00, 0xbc, 0x19, 0x01, 0x00, 0xac, 0xb9, 0x00, 0x00, 0xdc, 0xb8, 0x00, 0x00, 
 0x0c, 0xb8, 0x00, 0x00, 0xfc, 0xb4, 0x00, 0x00, 0x2c, 0xae, 0x00, 0x00, 0x5c, 0xad, 0x00, 0x00, 
 // ... (remaining 139kB of model flatbuffer omitted for brevity in patch log) ...
 0x03, 0x00, 0x00, 0x00, 0x00, 0x00, 0x00, 0x03,
};

// End of model_data
